0a 06 15 01 f7 df 37 fa d6 e0 01 04 ef e9 fc 09 18 fc 0b f0 02 fd f1 0f fc e5 19 1a f8 f1 00 11 21 f8 f5 2b 07 d6 f0 10 ec 0a 16 f3 06 41 10 d6
00 18 06 fa 12 2b b2 fa 18 07 c8 06 07 fb e8 0d f0 2e 17 1a 05 07 0c 12 fb 0d 07 00 14 11 f6 f5 e0 f9 f1 db fb de ef 0e 14 de ec 21 2e b7 15 38
1e 07 0e 04 28 0f 11 dd ff 04 f2 fd d6 01 f9 32 e9 eb f3 ee 00 e7 0f 05 1c 05 1a 14 15 ea f3 f9 1e f6 ed 0d 1c f9 00 f3 1a f0 0f 1c 07 fe 01 38
09 1b 02 e1 35 0b 0c e8 18 00 19 ff 1d 12 0e de d6 f5 e8 fe fe 11 f3 fc f5 ff d7 f0 fc f1 fb 06 0f fe 08 0a ef f2 0b ec 03 f6 09 18 39 10 16 f0
19 ca e7 cb fb bc e7 c3 fa 22 0a fa 18 13 08 03 0b 0a 35 19 10 eb 12 ed f6 12 11 fb 00 00 07 04 eb e8 ee c4 fb 2e 11 0e 06 28 00 f4 e3 f1 ea 1e
e1 f6 0c 32 ed 0c ff 5c 1a fd 0a 26 1f f8 0f e5 00 fd 00 07 05 fb df e4 ec cf f7 e7 0f 07 00 1a e8 fb 0c eb ff 08 0f 01 14 00 07 fc 14 1b 03 01
00 e8 d5 4d d3 c7 f6 37 cb db 17 17 e1 ef fe ef 12 08 0e fa 05 1c 0f 18 f3 03 f6 06 08 f6 fa 00 ea e0 e2 ea f5 24 04 2e f1 12 23 1b d3 26 1f f1
02 1e 0e ea 19 1c 1a f8 00 0c 04 02 06 05 e6 28 ea e5 07 06 06 ee 02 ed 10 25 15 eb 0f 12 0b ed 30 1a 19 09 13 ef f8 f9 e8 ee ec f7 ef cb e0 d2
f9 ed 22 fc 00 0e fa 13 18 e9 f8 14 db 04 04 fb 1d fd 03 0a ef f0 d9 0c 0b 0a fa e7 11 ee dc fc f2 fa fb 14 11 37 2b e4 ee f8 f1 ff ee 1f 17 09
f8 fa e0 e2 dc 0c 0e 0c ed 24 09 cd 21 2a 00 d3 26 f2 ef e8 fb 0c f4 fb e0 f2 0d 18 07 fd 0b 00 10 f3 01 31 d1 2f 0d f4 14 1f d5 ca 01 f4 e2 f8
